TRT-100500-EntropyCalibration2
images: 3c010a14
/model.0/conv/Conv_output_0: 3ea0ca59
/model.0/act/Sigmoid_output_0: 3c010a14
/model.0/act/Mul_output_0: 3e8ef4ef
/model.1/conv/Conv_output_0: 3f2b299c
/model.1/act/Sigmoid_output_0: 3c010a14
/model.1/act/Mul_output_0: 3ea56dbf
/model.2/cv1/conv/Conv_output_0: 3ecb7660
/model.2/cv1/act/Sigmoid_output_0: 3c010a14
/model.2/cv1/act/Mul_output_0: 3e158f3c
/model.2/Split_output_0: 3e8ebc84
/model.2/Split_output_1: 3d8ff4a0
/model.2/m.0/cv1/conv/Conv_output_0: 3e892c16
/model.2/m.0/cv1/act/Sigmoid_output_0: 3c010a14
/model.2/m.0/cv1/act/Mul_output_0: 3e8ddfab
/model.2/m.0/cv2/conv/Conv_output_0: 3e901835
/model.2/m.0/cv2/act/Sigmoid_output_0: 3c010a14
/model.2/m.0/cv2/act/Mul_output_0: 3e8f0556
/model.2/m.0/Add_output_0: 3e836e32
/model.2/Concat_output_0: 3e7ea0ce
/model.2/cv2/conv/Conv_output_0: 3e0c664d
/model.2/cv2/act/Sigmoid_output_0: 3c00e9c8
/model.2/cv2/act/Mul_output_0: 3d68a4de
/model.3/conv/Conv_output_0: 3d92ee49
/model.3/act/Sigmoid_output_0: 3bff9d48
/model.3/act/Mul_output_0: 3d0191f7
/model.4/cv1/conv/Conv_output_0: 3da960ea
/model.4/cv1/act/Sigmoid_output_0: 3c00af73
/model.4/cv1/act/Mul_output_0: 3d12999d
/model.4/Split_output_0: 3d12999d
/model.4/Split_output_1: 3cd27bf5
/model.4/m.0/cv1/conv/Conv_output_0: 3d5481ff
/model.4/m.0/cv1/act/Sigmoid_output_0: 3bfe369e
/model.4/m.0/cv1/act/Mul_output_0: 3c804fa8
/model.4/m.0/cv2/conv/Conv_output_0: 3d9dc164
/model.4/m.0/cv2/act/Sigmoid_output_0: 3c004d96
/model.4/m.0/cv2/act/Mul_output_0: 3cd31911
/model.4/m.0/Add_output_0: 3d5233fa
/model.4/m.1/cv1/conv/Conv_output_0: 3d38d970
/model.4/m.1/cv1/act/Sigmoid_output_0: 3bf7157b
/model.4/m.1/cv1/act/Mul_output_0: 3c1f90c4
/model.4/m.1/cv2/conv/Conv_output_0: 3d73a0d5
/model.4/m.1/cv2/act/Sigmoid_output_0: 3c00e7ff
/model.4/m.1/cv2/act/Mul_output_0: 3d12c873
/model.4/m.1/Add_output_0: 3d8e8a50
/model.4/Concat_output_0: 3d41b0d5
/model.4/cv2/conv/Conv_output_0: 3d80ed66
/model.4/cv2/act/Sigmoid_output_0: 3c004d63
/model.4/cv2/act/Mul_output_0: 3ca52a93
/model.5/conv/Conv_output_0: 3d55eab0
/model.5/act/Sigmoid_output_0: 3bfc5cbf
/model.5/act/Mul_output_0: 3c8021a4
/model.6/cv1/conv/Conv_output_0: 3d9d5acb
/model.6/cv1/act/Sigmoid_output_0: 3c005738
/model.6/cv1/act/Mul_output_0: 3ce75b0c
/model.6/Split_output_0: 3ce75b0c
/model.6/Split_output_1: 3c99b811
/model.6/m.0/cv1/conv/Conv_output_0: 3d4cfb90
/model.6/m.0/cv1/act/Sigmoid_output_0: 3bfff395
/model.6/m.0/cv1/act/Mul_output_0: 3c385d55
/model.6/m.0/cv2/conv/Conv_output_0: 3d265050
/model.6/m.0/cv2/act/Sigmoid_output_0: 3c006f35
/model.6/m.0/cv2/act/Mul_output_0: 3c9aaf7a
/model.6/m.0/Add_output_0: 3cf2f4ee
/model.6/m.1/cv1/conv/Conv_output_0: 3d3bf769
/model.6/m.1/cv1/act/Sigmoid_output_0: 3bfd652e
/model.6/m.1/cv1/act/Mul_output_0: 3c380c5b
/model.6/m.1/cv2/conv/Conv_output_0: 3d5ef98f
/model.6/m.1/cv2/act/Sigmoid_output_0: 3c00c993
/model.6/m.1/cv2/act/Mul_output_0: 3d034c2b
/model.6/m.1/Add_output_0: 3d6cb62e
/model.6/Concat_output_0: 3d006075
/model.6/cv2/conv/Conv_output_0: 3d375b38
/model.6/cv2/act/Sigmoid_output_0: 3bf9a5ef
/model.6/cv2/act/Mul_output_0: 3c745ca8
/model.7/conv/Conv_output_0: 3d3f5a58
/model.7/act/Sigmoid_output_0: 3bff7a6b
/model.7/act/Mul_output_0: 3c4fa697
/model.8/cv1/conv/Conv_output_0: 3d77ce5e
/model.8/cv1/act/Sigmoid_output_0: 3c00cabd
/model.8/cv1/act/Mul_output_0: 3d258916
/model.8/Split_output_0: 3d258916
/model.8/Split_output_1: 3c800fff
/model.8/m.0/cv1/conv/Conv_output_0: 3d4efccd
/model.8/m.0/cv1/act/Sigmoid_output_0: 3bfecc73
/model.8/m.0/cv1/act/Mul_output_0: 3c9bc698
/model.8/m.0/cv2/conv/Conv_output_0: 3da6c8e7
/model.8/m.0/cv2/act/Sigmoid_output_0: 3c0109f1
/model.8/m.0/cv2/act/Mul_output_0: 3cea7663
/model.8/m.0/Add_output_0: 3d3e4021
/model.8/Concat_output_0: 3d26437f
/model.8/cv2/conv/Conv_output_0: 3d650cd8
/model.8/cv2/act/Sigmoid_output_0: 3c00c053
/model.8/cv2/act/Mul_output_0: 3c9a1149
/model.9/cv1/conv/Conv_output_0: 3d43cd6e
/model.9/cv1/act/Sigmoid_output_0: 3bfef85e
/model.9/cv1/act/Mul_output_0: 3d3f5d7e
/model.9/m/MaxPool_output_0: 3d3f5d7e
/model.9/m_1/MaxPool_output_0: 3d3f5d7e
/model.9/m_2/MaxPool_output_0: 3d3f5d7e
/model.9/Concat_output_0: 3d401d84
/model.9/cv2/conv/Conv_output_0: 3d509bc9
/model.9/cv2/act/Sigmoid_output_0: 3bf03af7
/model.9/cv2/act/Mul_output_0: 3c672850
/model.10/Resize_output_0: 3c672850
/model.11/Concat_output_0: 3c745ca8
/model.12/cv1/conv/Conv_output_0: 3d4ae801
/model.12/cv1/act/Sigmoid_output_0: 3bff5b4c
/model.12/cv1/act/Mul_output_0: 3ca5523a
/model.12/Split_output_0: 3c74528f
/model.12/Split_output_1: 3ca5b826
/model.12/m.0/cv1/conv/Conv_output_0: 3d33024c
/model.12/m.0/cv1/act/Sigmoid_output_0: 3bfc7726
/model.12/m.0/cv1/act/Mul_output_0: 3c10063f
/model.12/m.0/cv2/conv/Conv_output_0: 3d3adf06
/model.12/m.0/cv2/act/Sigmoid_output_0: 3c00cc1d
/model.12/m.0/cv2/act/Mul_output_0: 3c9af6bd
/model.12/Concat_output_0: 3c9af6bd
/model.12/cv2/conv/Conv_output_0: 3d37873f
/model.12/cv2/act/Sigmoid_output_0: 3bfe0f6b
/model.12/cv2/act/Mul_output_0: 3c72b81b
/model.13/Resize_output_0: 3c72b81b
/model.14/Concat_output_0: 3c90886e
/model.15/cv1/conv/Conv_output_0: 3d3dee9b
/model.15/cv1/act/Sigmoid_output_0: 3bf5f8a9
/model.15/cv1/act/Mul_output_0: 3c879275
/model.15/Split_output_0: 3c5b7cae
/model.15/Split_output_1: 3c90455a
/model.15/m.0/cv1/conv/Conv_output_0: 3d16f656
/model.15/m.0/cv1/act/Sigmoid_output_0: 3bec22a8
/model.15/m.0/cv1/act/Mul_output_0: 3c721779
/model.15/m.0/cv2/conv/Conv_output_0: 3d161e71
/model.15/m.0/cv2/act/Sigmoid_output_0: 3bfe9387
/model.15/m.0/cv2/act/Mul_output_0: 3d002a51
/model.15/Concat_output_0: 3ce90368
/model.15/cv2/conv/Conv_output_0: 3d2c9dde
/model.15/cv2/act/Sigmoid_output_0: 3bf9d008
/model.15/cv2/act/Mul_output_0: 3c8fc4f1
/model.16/conv/Conv_output_0: 3d47190b
/model.22/cv2.0/cv2.0.0/conv/Conv_output_0: 3d76aedd
/model.22/cv3.0/cv3.0.0/conv/Conv_output_0: 3d52dd98
/model.16/act/Sigmoid_output_0: 3bfc47fd
/model.22/cv2.0/cv2.0.0/act/Sigmoid_output_0: 3c00adb1
/model.22/cv3.0/cv3.0.0/act/Sigmoid_output_0: 3bfb5e7f
/model.16/act/Mul_output_0: 3c90cae1
/model.22/cv2.0/cv2.0.0/act/Mul_output_0: 3c910512
/model.22/cv3.0/cv3.0.0/act/Mul_output_0: 3c14eb90
/model.17/Concat_output_0: 3c73a124
/model.22/cv2.0/cv2.0.1/conv/Conv_output_0: 3e432653
/model.22/cv3.0/cv3.0.1/conv/Conv_output_0: 3e14985f
/model.18/cv1/conv/Conv_output_0: 3d3e9734
/model.22/cv2.0/cv2.0.1/act/Sigmoid_output_0: 3c010a14
/model.22/cv3.0/cv3.0.1/act/Sigmoid_output_0: 3c010a14
/model.18/cv1/act/Sigmoid_output_0: 3c002fa9
/model.22/cv2.0/cv2.0.1/act/Mul_output_0: 3dd68a04
/model.22/cv3.0/cv3.0.1/act/Mul_output_0: 3dc80024
/model.18/cv1/act/Mul_output_0: 3cb1fd29
/model.22/cv2.0/cv2.0.2/Conv_output_0: 3dc6a7d2
/model.22/cv3.0/cv3.0.2/Conv_output_0: 3e2b8dcb
/model.18/Split_output_0: 3c805dd2
/model.18/Split_output_1: 3ca49cde
/model.22/Reshape_output_0: 3dc6a7d2
/model.22/Reshape_3_output_0: 3e2b8dcb
/model.18/m.0/cv1/conv/Conv_output_0: 3d28f2a4
/model.18/m.0/cv1/act/Sigmoid_output_0: 3bf53112
/model.18/m.0/cv1/act/Mul_output_0: 3b109d18
/model.18/m.0/cv2/conv/Conv_output_0: 3d6c0cd7
/model.18/m.0/cv2/act/Sigmoid_output_0: 3c00e7b9
/model.18/m.0/cv2/act/Mul_output_0: 3d01c325
/model.18/Concat_output_0: 3cd464c3
/model.18/cv2/conv/Conv_output_0: 3d83924b
/model.18/cv2/act/Sigmoid_output_0: 3bfc3c7d
/model.18/cv2/act/Mul_output_0: 3c738da9
/model.19/conv/Conv_output_0: 3d52cbb0
/model.22/cv2.1/cv2.1.0/conv/Conv_output_0: 3dabffc6
/model.22/cv3.1/cv3.1.0/conv/Conv_output_0: 3d7ab868
/model.19/act/Sigmoid_output_0: 3c03a6a9
/model.22/cv2.1/cv2.1.0/act/Sigmoid_output_0: 3c00ec54
/model.22/cv3.1/cv3.1.0/act/Sigmoid_output_0: 3c00b831
/model.19/act/Mul_output_0: 3c7419a5
/model.22/cv2.1/cv2.1.0/act/Mul_output_0: 3d005f5c
/model.22/cv3.1/cv3.1.0/act/Mul_output_0: 3c8fe4fb
/model.20/Concat_output_0: 3c7419a5
/model.22/cv2.1/cv2.1.1/conv/Conv_output_0: 3e4eae0c
/model.22/cv3.1/cv3.1.1/conv/Conv_output_0: 3ecec12e
/model.21/cv1/conv/Conv_output_0: 3d5d8ba4
/model.22/cv2.1/cv2.1.1/act/Sigmoid_output_0: 3c010a14
/model.22/cv3.1/cv3.1.1/act/Sigmoid_output_0: 3c010a14
/model.21/cv1/act/Sigmoid_output_0: 3c005d25
/model.22/cv2.1/cv2.1.1/act/Mul_output_0: 3dc7ff66
/model.22/cv3.1/cv3.1.1/act/Mul_output_0: 3dd57b7f
/model.21/cv1/act/Mul_output_0: 3c9a8d18
/model.22/cv2.1/cv2.1.2/Conv_output_0: 3dc0385b
/model.22/cv3.1/cv3.1.2/Conv_output_0: 3e6680c2
/model.21/Split_output_0: 3c80d7fc
/model.21/Split_output_1: 3c9a8d18
/model.22/Reshape_1_output_0: 3dc0385b
/model.22/Reshape_4_output_0: 3e6680c2
/model.21/m.0/cv1/conv/Conv_output_0: 3d7cfa3a
/model.21/m.0/cv1/act/Sigmoid_output_0: 3c007f2b
/model.21/m.0/cv1/act/Mul_output_0: 3c80c2fd
/model.21/m.0/cv2/conv/Conv_output_0: 3d9017df
/model.21/m.0/cv2/act/Sigmoid_output_0: 3c010a0f
/model.21/m.0/cv2/act/Mul_output_0: 3cd109f7
/model.21/Concat_output_0: 3ca421f3
/model.21/cv2/conv/Conv_output_0: 3de13b18
/model.21/cv2/act/Sigmoid_output_0: 3c010942
/model.21/cv2/act/Mul_output_0: 3c72add4
/model.22/cv2.2/cv2.2.0/conv/Conv_output_0: 3dc47a1d
/model.22/cv3.2/cv3.2.0/conv/Conv_output_0: 3daf832d
/model.22/cv2.2/cv2.2.0/act/Sigmoid_output_0: 3c00efc7
/model.22/cv3.2/cv3.2.0/act/Sigmoid_output_0: 3c0105a8
/model.22/cv2.2/cv2.2.0/act/Mul_output_0: 3d26b29b
/model.22/cv3.2/cv3.2.0/act/Mul_output_0: 3cd0cf2c
/model.22/cv2.2/cv2.2.1/conv/Conv_output_0: 3e8288c1
/model.22/cv3.2/cv3.2.1/conv/Conv_output_0: 3e87f338
/model.22/cv2.2/cv2.2.1/act/Sigmoid_output_0: 3c010a14
/model.22/cv3.2/cv3.2.1/act/Sigmoid_output_0: 3c010a14
/model.22/cv2.2/cv2.2.1/act/Mul_output_0: 3e18eaa6
/model.22/cv3.2/cv3.2.1/act/Mul_output_0: 3e2991ba
/model.22/cv2.2/cv2.2.2/Conv_output_0: 3dc6fce8
/model.22/cv3.2/cv3.2.2/Conv_output_0: 3e70e891
/model.22/Reshape_2_output_0: 3dc6fce8
/model.22/Reshape_5_output_0: 3e70e891
/model.22/Concat_output_0: 3dc7d719
/model.22/Concat_1_output_0: 3e5a6d0d
/model.22/dfl/Reshape_output_0: 3dc7d719
/model.22/Sigmoid_output_0: 3a65a1bd
/model.22/dfl/Transpose_output_0: 3dc7d719
/model.22/dfl/Softmax_output: 3b8a592d
/model.22/dfl/Softmax_output_0: 3b8a592d
/model.22/dfl/conv/Conv_output_0: 3de357ae
/model.22/dfl/Reshape_1_output_0: 3de357ae
ONNXTRT_Broadcast_output: 3c810a14
/model.22/Sub_1_output_0: 3e3f77bd
/model.22/Sub_output_0: 3f1f8914
/model.22/Constant_13_output_0_output: 3f204a85
/model.22/Slice_output_0: 3dc43564
/model.22/Mul_2_output_0: 40a1ba42
ONNXTRT_Broadcast_95_output: 3e810a14
/model.22/Constant_14_output_0_output: 3c810a14
/model.22/Concat_2_output_0: 3f206d4f
/model.22/Div_1_output_0: 3f206d4f
output0: 40a1ba42
/model.22/Constant_15_output_0_output: 3e810a14
/model.22/Slice_1_output_0: 3de310bd
/model.22/Constant_12_output_0_output: 3f204a85
/model.22/Add_2_output_0: 3fa06d4f
/model.22/Add_1_output_0: 3f21c93c
